/**
  ******************************************************************************
  * @file    network_data_params.c
  * @author  AST Embedded Analytics Research Platform
  * @date    2025-03-07T11:34:01+0100
  * @brief   AI Tool Automatic Code Generator for Embedded NN computing
  ******************************************************************************
  * Copyright (c) 2025 STMicroelectronics.
  * All rights reserved.
  *
  * This software is licensed under terms that can be found in the LICENSE file
  * in the root directory of this software component.
  * If no LICENSE file comes with this software, it is provided AS-IS.
  ******************************************************************************
  */

#include "network_data_params.h"


/**  Activations Section  ****************************************************/
ai_handle g_network_activations_table[1 + 2] = {
  AI_HANDLE_PTR(AI_MAGIC_MARKER),
  AI_HANDLE_PTR(NULL),
  AI_HANDLE_PTR(AI_MAGIC_MARKER),
};




/**  Weights Section  ********************************************************/
AI_ALIGNED(32)
const ai_u64 s_network_weights_array_u64[1505] = {
  0x3d698c49bcaa3b88U, 0x3e2bedf4bdc5dfc9U, 0xbc9e4ea3bded2236U, 0x3c9328853e41afbdU,
  0x40629f584032421cU, 0x406055b440820cf9U, 0xbeae4f633e4d48eeU, 0xbe6adf80be82f11eU,
  0xbe3a8421bc175b47U, 0xbea07b733e0d4690U, 0x3e82fd7abd259101U, 0x3c20b4dabe3c1677U,
  0x3d9e5fc03e5626f6U, 0x3d640617be25e975U, 0x3e482c1dbd77a0c3U, 0xbe97eead3e4bf397U,
  0xbebbc7be3bd3c3d3U, 0x3e883455bd85a7a2U, 0xbe06028ebe0ffeccU, 0xbe8be4cbbd0cbc3cU,
  0xbe040285be7ceea5U, 0xbe14975bbe23d537U, 0xbe9d5f173d989d24U, 0xbda5dcdcbe8cbef8U,
  0x3d6143cc3dd00d28U, 0x3dc31b803e7534eaU, 0xbe42f8debdacf0caU, 0x3ca99b10be4c11fcU,
  0xbd3ecbf0bda08606U, 0x3e877c313e2a9542U, 0x3db759e43d88b328U, 0x3cbf04b03dca0380U,
  0xbe50e1473d3c4ec8U, 0xbd27cea23d472241U, 0x3e210ade3e02cb3aU, 0xbd0f5f8bbead940cU,
  0xbe420fccbd29dae3U, 0x3e308bf9be597058U, 0xbe3ae4b23e7d88b5U, 0xbd83d9d23e3c8de5U,
  0x3e7fd4453e6be592U, 0xbe2d30383d8008a0U, 0xbcd6de1ebe902fa1U, 0xc0a34ae1c080a721U,
  0xc09a5a43c08362e1U, 0xb9173960bed6ee51U, 0x3e0c08ac3e393ab8U, 0x3d84b9f03dfb7522U,
  0xbec85350badc37c2U, 0xc063e9b3be923d89U, 0xc09a2f1dc08f6561U, 0x3df6f528c0887babU,
  0xbdf03f0abba29f6cU, 0xbd2cf9353dd10aadU, 0x3dc56042bebf586bU, 0xbea138123b8f1a43U,
  0x3ed8e8833ed15eeaU, 0x3df100443f8faba6U, 0xbd9360743c961b89U, 0x3dedc3163e08ac06U,
  0xbdfb1863be3943c8U, 0xbeb1e1703e313a6fU, 0xc05fe420be125833U, 0xc08fcf62c09042d5U,
  0xbeb62065c08dc225U, 0x3d3f5625bdc6a07fU, 0x3dd59d19bd5f942dU, 0xbe887bbcbe9847b4U,
  0xbcf461733d89c234U, 0xbee719b3bdc6f867U, 0xbca37c9d3d9c9bfdU, 0xbe766c99be432a80U,
  0x3c39e3ea3cbc48e4U, 0xbd38c3e03e4d44f8U, 0xbe7b1792bd557128U, 0xbf97a78abe24452eU,
  0xc001b6f1bfd066f6U, 0xbe4d4413bfe9f166U, 0xbe350fc33d9daf55U, 0xbd9f26d3be690f38U,
  0xbe633472be872a9cU, 0xbb8ee982be5cfd4dU, 0xbf49b7e2bf60525bU, 0xbef6da3abf542393U,
  0xbe8bfa7d3dcc42d8U, 0x3d1b5f78be40303eU, 0xbdb0f2203e2b6748U, 0xbdccd92cbe81fff8U,
  0xbe4faf4c3de10694U, 0xbd165bf83d047fd8U, 0xbdf7672ab97f9000U, 0x3cb693f9be6d10cdU,
  0xbdc5c57ebe88b8eeU, 0xbd87500ebe84ad60U, 0xbecd6518bd89a34dU, 0x3ea125f6bc8f7d0aU,
  0x3ebde1873f110bf9U, 0xbd2dd45cbd832b2eU, 0xbe0a79cbbe7f37dfU, 0xbe8c1a40bdc4cf62U,
  0x3d786a60bde01c72U, 0x3e3a12fe3bb0f4c0U, 0x3c5a69a03d17a7e0U, 0x3e363a06be85d816U,
  0xbd8d00383e143bcbU, 0xbe8159883d0b7efcU, 0x3d5d10b83df22e07U, 0x3da5a32e3e65fc04U,
  0x40948b0b4050a991U, 0x408f8bac407e1539U, 0xbda670c13ebe0368U, 0x3e1cfddf3dda39d6U,
  0xbe9758813e316643U, 0xbe808112bea688a6U, 0xc00e9fc8bda4cb50U, 0xc01b972bc03135adU,
  0xbcea7e46bfffe48fU, 0xbd883c3dbe0e1d82U, 0xbcf2308d3de927baU, 0x3e8858bbbe262d6fU,
  0x3e4a07b0be24f428U, 0x3e0370dd3fb9bc29U, 0x3ff4e2f5401ec979U, 0x3d1731903da31ea6U,
  0xbd8375263cf477d4U, 0xbb0f113d3e2afe61U, 0xbf0109a1bda7f2eaU, 0xc06ed655be3e8854U,
  0xc0920d16c0a323f2U, 0x3cf51aebc092c8d2U, 0xbc05ee5bbc36c539U, 0xbf174be6be65dc42U,
  0x3e353914be7be2e2U, 0xbeb36155bf637d1dU, 0x3ee59d923f5aba46U, 0x3e253ba140232acbU,
  0x3dba2ee0be89b570U, 0x3df31e64bc0dfc25U, 0xbe8d265f3e005f17U, 0xbf15268fbe82f2b4U,
  0xc04b0f5abe2feaedU, 0xc0440c1fc0403c76U, 0x3e8de77bc07d4dadU, 0xbdc29396be185dbcU,
  0x3d1b8e803e24de12U, 0xbe21de04bdbd082cU, 0x3e6da5f63cfac5d0U, 0x3c9d15403e1633d8U,
  0x3e1e67923e1ed68cU, 0xbe116e453e04ee84U, 0xbd18bb333d358c44U, 0xbc273ad6bba728d3U,
  0xbdc5e4b9be313eb7U, 0xbf59f87a3e2dad53U, 0xbfb487ecbf69f92aU, 0xbe3ccc6cbebc0e6dU,
  0xbac8c000bd183918U, 0x3e258170be87c6d6U, 0xbdd94ce83d652960U, 0xbe796d3a3e84f4f7U,
  0xbdf03c503ddb38f0U, 0x3e65c532bdb9b02cU, 0xbe202229be8c011aU, 0xbe4c28c93d9a45bfU,
  0xbdf16ff43dd65cbaU, 0xbe5f4abbbc8a0253U, 0xbd7b698fbd2bc20bU, 0xbf1cd4aa3fa3b020U,
  0x3ead3e183f6bd04eU, 0x3d9fac3e3da3f792U, 0x3ce629413db0b1e5U, 0xbec2e443be92033aU,
  0xbd9bb061bf4200efU, 0xc09f1908c0592542U, 0xc0837e78c0761f15U, 0x3e36f5613e21402aU,
  0x3dc3ba8dbd68aa53U, 0xbeb4e7ca3b6764b5U, 0xbd19bc98bd0a8cdeU, 0x406a7c41bdc66f68U,
  0x40854706409d9dd9U, 0x3ec4f759409a306fU, 0x3c7fd70a3d48f8dfU, 0x3e0cb7b83d797e06U,
  0x3e0a8c9a3e0180daU, 0xbea13078bee19efaU, 0xc027b135bfc0f85eU, 0xc02016fbbfe013afU,
  0xbe266631bed378a6U, 0xbe6a0c603d5161d7U, 0xbe9bfe62bdf5457cU, 0xbde185e73d101cc6U,
  0x3e99bdf5be8fd7caU, 0x3f11145cbd1fb95eU, 0x3afa89653ed7a2baU, 0x3d54d762bd40b9e2U,
  0xbece98683dcb4a34U, 0x3e47a83dbdc80347U, 0xbeac6b693e89dce2U, 0x4096e136406a267aU,
  0x4085398140971149U, 0xbe7d47183ed035ceU, 0x3d7fec60be79de70U, 0x3d84ffb43d333a20U,
  0x3d862d48be4c3199U, 0x3e7021963e7f1f1aU, 0x3d8b5ff8bc9df880U, 0x3c161820bdfee48cU,
  0x398ee703be8e1bfdU, 0x3d33f1593db18e6aU, 0xbe05dee03e0f134bU, 0x3e22d713bea0b512U,
  0x3eb0f6e43da1f9d9U, 0x3e3623713d2ecd86U, 0xbc17dee1be4694f1U, 0xbe8bf41bbd083763U,
  0x3c2f28773c28b8dfU, 0xbeac75723d3b9e12U, 0x3eafa481be6332f5U, 0x3f2d04acbfc7e37dU,
  0x3e4d57fdbf6f0adeU, 0xbe30558abda1c6f8U, 0x3df33d64bc804490U, 0xbe49f928be4f74a5U,
  0xbd4e2598bd66c878U, 0x3e3da14c3d5a6ce8U, 0x3e7e5906bddf7db0U, 0xbcce14803d2ca5a0U,
  0xbc6b2380bc431500U, 0xbe22433ebe66f918U, 0xbe3af5ea3d66f5b0U, 0xbd50d9bcbe61406bU,
  0xbe41c066be27ac22U, 0xbe8813ebbe304ad8U, 0x3db20f0d3cdfb010U, 0xbe00340abda0328aU,
  0x3e35b885be72fe0bU, 0xbd03cc21bf18b1beU, 0xc09fefbdc08a67f1U, 0xc0a5fa78c09dc983U,
  0xbdbe6683be19a370U, 0xbe67ca373da29ed2U, 0x3dcc8246be5ff31aU, 0xbb911f4abe4467b5U,
  0x3f58b6e53da2016aU, 0x3fd0e79a3fd9e4c8U, 0xbe139d253f874c56U, 0xbe5ee6403acabecfU,
  0xbc1bc135be2208efU, 0x3de22a3fbeab8936U, 0xbe817460bbfc7848U, 0xbf26d87c3ddc76faU,
  0xbf08ce643f059b60U, 0xbd17d599bdd24efbU, 0xbeb592d0bccd840dU, 0xbd03dccbbf011788U,
  0xbe30715e3e68b5c3U, 0x3fbf9d4c3dc010caU, 0x402e014e3f853a37U, 0xbd1ee0544021c923U,
  0x3d9c56963d93a1e2U, 0xbe53a84cbeaf3f86U, 0xbec957223da3d296U, 0xbde364aabdf76764U,
  0x4019f290400edd0dU, 0x40101ada4012aca6U, 0xbe113a92be207100U, 0x3d91011b3ca3daa4U,
  0xbd259ad4bcc41e44U, 0xbe661f1fbdd763caU, 0xbe42104a3e53e8faU, 0x3dc933873e894407U,
  0x3c82bb503d11a500U, 0x3da2702b38616e1aU, 0xbe873b7fbee564b0U, 0x3d098a50be80316dU,
  0xbd83f9dcbe583d33U, 0x4059f7c8400d250aU, 0x4060d3e54036fabaU, 0x3c1f542fbe1de0f4U,
  0xbe286b883da65c5dU, 0xbe86bf7abe2e5702U, 0xbed0146bbe880c78U, 0xc01b16f8bbd09cfbU,
  0xc0317569c019742aU, 0xbd400785c0274adaU, 0xbe56d26c3d690a4eU, 0xbd1d015ebe46abbaU,
  0xbe1509afbe0fa2fbU, 0xbdc0c6c4be5a9e7eU, 0x3ed275f13dc5a6a9U, 0xbf0fb8303c9b3249U,
  0xbe518d3abeaaaa36U, 0xbea555783e58e789U, 0x3da0f5e1be1f5e59U, 0x3ed838133e4e4f40U,
  0x404c5da5bca88643U, 0x409630e3409173acU, 0x3e6fa977407811a2U, 0x3cd49cf3be85af84U,
  0xbe0c5c72be13ea8bU, 0xbdfc1fa7be02bb09U, 0xbe4f6a39be738092U, 0xbe9fa3883d270b36U,
  0xbdf585f9bede316fU, 0xbcb6c48b3e2e0e1cU, 0x3dfcf4b13c080e80U, 0x3e26dd5e3d334811U,
  0xbd7dea3fbe13d1aaU, 0x3e42c2c43dab1e1bU, 0xbdc07df43e7d96f6U, 0x3d3b22e83e1f90e2U,
  0xbe468a903d198fb0U, 0xbd4e48243df5705cU, 0xbe335d143cdcb900U, 0xbe0acd223e052152U,
  0x3deba670bdf870bcU, 0x3c50aee0bc81e120U, 0xbde4524cbdec04c0U, 0xbe4c8319beaa0491U,
  0x3de699963e46a850U, 0xbd882b963da8c959U, 0xbee406aabe053190U, 0xbf720f87bbc2c73dU,
  0x3c9bb1c63e57ec5eU, 0xbe32498b3e021e00U, 0xbd89a220be99da1dU, 0xbe06e63f3d951f00U,
  0xbf073029bef854e0U, 0xbfcde9bfc0034888U, 0xbffd922bbff3591bU, 0x3ded620f3ec4ba0cU,
  0xbe4f7090be7d781cU, 0x3da90afc3e3e2717U, 0x3cd9b9d83d55bc2eU, 0xbfedb012be837855U,
  0xc0125b73c03891c1U, 0xbc2b89dbc003d875U, 0xbd20aeec3e2142bbU, 0xbe5d24fc3d99adddU,
  0xbe32fb94bdfea7f6U, 0xbe98f3e53e916bdaU, 0x4088215540369545U, 0x407cf29f40753fe1U,
  0xbdf88d683e93bd06U, 0xbca7c706be59129cU, 0xbe93bf9b3e1818bcU, 0xbe67a0b03df738f5U,
  0xbda2169fbd0a6f8eU, 0xbedf4ee33d9829acU, 0x3e4afebdbd114408U, 0x3dcca0e1bd949ec1U,
  0xbdb2354d3e22fdbfU, 0xbe030326bea6dd4dU, 0x3c434550becebc53U, 0xc064d750c016c745U,
  0xc0462463c05b0d78U, 0xbe6f0e2cbdea528dU, 0x3c510961be168e80U, 0x3e36acb33e6c4713U,
  0xbde7e7f33d857c9bU, 0xbf159adcbddb4c3aU, 0xbee6c2203e83685bU, 0x3d29a640bed652ebU,
  0x3cf1112c3c7fb14eU, 0xbe4ca1d03c7d7a18U, 0xbe50007dbe702e2dU, 0xbefc9549be19c723U,
  0xc018f4c7bfbab29bU, 0xbffe5cb6bfe7a6d5U, 0x3e558f393e1b1e0cU, 0x3e387f093e30ede9U,
  0xbe533f2a3dfb242bU, 0x3ef3d368be03919eU, 0x408079dfbc1b0a3aU, 0x409f3bc640ae2848U,
  0x3ddf18074098794eU, 0xbe683a44be862e4fU, 0xbe1a3e133e0abaf0U, 0x3cce1650be34c7a2U,
  0xbcc3ef803bf7fa00U, 0xbe877cd4be7bbb8cU, 0xbe5b7a6e3e3a910aU, 0x3c799f17be6842b6U,
  0xbd054a17bd0b3dacU, 0xbe4590f2be4e49b9U, 0xbe972eac3e030c2dU, 0xc04c4a30be6f65a4U,
  0xc057564bc06080d8U, 0x3e3a0909c04edffeU, 0x3ca1f8a7be3c9efeU, 0xbec0af04bebd4d1cU,
  0x3da55ae4bde5f65eU, 0xbe8f9f263e14a287U, 0x3fde13573f73b243U, 0x3f8cc6ce3fb23ea5U,
  0xbe8b7b1f3dda7273U, 0x3e73869639b65fc1U, 0x3dd3e34ebe670f9fU, 0x3e5d0aa23c509e93U,
  0x3e02c092bdef359cU, 0xbe316cf23bbaf240U, 0xbe793827be2ed243U, 0x3c66b9a1be52cee2U,
  0xbda799de3da090daU, 0xbd18a735bdb566a4U, 0xbe39ab263e442c6cU, 0x3e1176dabe054933U,
  0x3e8ec54dbd84b179U, 0x3ba0b4bcbdfdc568U, 0x3de020953d0c08f3U, 0x3e9d249cbd21e1c6U,
  0xbe2ae911bd87bb44U, 0xc07f3e7fbd1a0a20U, 0xc09fed37c0a7b2d8U, 0xbe368ee2c09d6aa8U,
  0xbdeeb8f9bca6cfbdU, 0xbd603427bda0e279U, 0xbd93270f00000000U, 0xbd0da23a3c8a57a3U,
  0xbbe509dbbe458c0aU, 0x3d7db7c3bd8edb7cU, 0xbe03108cU, 0xbd7e123cU,
  0xbd7fab26bc981bbfU, 0xbd716f4bbe619d9fU, 0xbd2e3e97bec9889bU, 0xbdafdc4600000000U,
  0xbde89d3500000000U, 0xbdcbeb8fbe1d5618U, 0xbe60dce2bddd18ccU, 0xbe2983b2U,
  0xbe2ed675bdfbab12U, 0x0U, 0xbd1a20673ce0c50bU, 0xbe957052be33cf43U,
  0xbcd450f3be1c870aU, 0xbd79758dbe10a0c7U, 0xbda48b47be3187a0U, 0xbbf49d3fbdf475e2U,
  0xbd099efe00000000U, 0xbce5b02dbe0e771eU, 0xbd884f8ebdfbbf44U, 0xbbc6f47dbd98221fU,
  0xbd7ae2ccbe460422U, 0xbd7e45fe00000000U, 0xbc39afe8be1a234fU, 0x3d00edfdbb905b2fU,
  0xbe51e7983d1d1e96U, 0x3db0e758bd49789eU, 0x3d9b7f483e3b0470U, 0x3d79afa83c8fae17U,
  0xbe8290933d137f3dU, 0x3e1b068b3e1cdfd4U, 0x3d7fe140bda1dc00U, 0xbe14c4143d86ebb0U,
  0x3dc40849be50dc0bU, 0xbdc8a7a33d64b8a1U, 0xbdf9b8b8be093f1bU, 0xbd9d30e03e3c3040U,
  0x3e5861b2bcc60b60U, 0xbe3a5bc9bdbfd200U, 0x3cbebac33dba8b2aU, 0x3de0b6a8bc90e8d5U,
  0xbc08fae7bdf15636U, 0x3c3ec8c03dc0c478U, 0xbdbf37a0bd5098e7U, 0xbd878a1abe67401dU,
  0x3dd1dc98be1ec3f4U, 0xbe0788cc3da287b2U, 0xbd9196b93e7cc380U, 0xbe4b86d4be813944U,
  0x3d08bf503e47ab88U, 0xbdb739dfbb52f100U, 0xbdaf99173e5b8a81U, 0x3d4c5770be7d05cfU,
  0xbe56e8cdbe2b8377U, 0x3e2041463e053164U, 0xbda0ecf8bd9b0a98U, 0x3e52959d3e4a6fd0U,
  0xbdb40be2bdef5356U, 0x3d4b66ea3e519dbfU, 0x3dda0cfdbd3a8ea0U, 0xbde41e58bd36c688U,
  0x3d62cee83e03e04fU, 0xbe43b1cbbd84d2cbU, 0x3e78fb7c3df3891aU, 0xbd9042f03e1ffa3fU,
  0x3d5a421abd2f3199U, 0x3d0020323dd5f50eU, 0x3c3e808b3e760f4eU, 0xbdb357f9bdc93800U,
  0x3d3787e43dfbd3a0U, 0x3e48926f3dbc9f6fU, 0xbdb4d03c3e03c3e6U, 0xbd83e4a03e70a2bfU,
  0xbc0120003e3184b4U, 0x3e1efc3c3e2fdbb8U, 0xbe2bfc993dd5d5e0U, 0xbd6d442e3cb55b90U,
  0xbcc6183abe1a78b3U, 0xbe78f95cbcb65bd0U, 0xbe22c86cbe589feeU, 0x3dbcb055bdce09e6U,
  0xbe7d4a4d3dcedf10U, 0x3de0d585be68e2b0U, 0xbd5e5b5dbd0fc4b6U, 0xbdfbd36e3da73d93U,
  0xbe5545943e482d8eU, 0x3e5e83133e563cf8U, 0xbe377f253bc00d8eU, 0x3cbb6e99be0f4889U,
  0x3e3ca54cbd10fa49U, 0x3d94ac38bd8426d6U, 0x3bd75076bde2a118U, 0x3e5f6b573e7585dbU,
  0xbe123a283e3dc204U, 0x3e4ea552be6eb790U, 0xbe6f3f00bd896bf0U, 0x3c5002803d8a5b31U,
  0x3e533adf3bd9b30aU, 0xbe3d364dbe726d54U, 0x3e5be8ac3ddb19b7U, 0x3dfa39c9be14a14cU,
  0xbdf2f5f33deda398U, 0x3def5ea93e0b6236U, 0xbe20860dbdbb5a42U, 0x3cd448203e6c9905U,
  0x3d8d2ffb3dceafa8U, 0xbcea18003d65d5e0U, 0xbc0858c6be09d702U, 0xbe73447d3df45100U,
  0xbe3005d4bde4a484U, 0xbcfa47b0bd964cc3U, 0x3d86b704bd997f08U, 0x3d881c483e5119a2U,
  0xbdc473f03d656710U, 0xbd9fa178bdf3e920U, 0x3e081910be655bcfU, 0x3e7bb80cbe3b0577U,
  0xbe4e416e3a2df4efU, 0xbe804c60bdc24458U, 0xbde793a03d6a0fc9U, 0x3daa0562be74b5d0U,
  0x3c55c3c0bded8f53U, 0xbe7ec6483e6a1980U, 0xbc9b4fa0be41bd1cU, 0xbe07d9d03c7633c0U,
  0x3dc08e37be1d361dU, 0xbd2ba6503d68fe70U, 0x3e6e6d98bd0517f0U, 0xbde6c428be20776cU,
  0xbd2a2940bdd9bc10U, 0xbd0bf7313e2da071U, 0x3e3271783e017a5aU, 0x3e6556d03e1f8d14U,
  0x3dc4fb653e731a70U, 0xbe173aacbdd07af0U, 0xbe6c463dbb6012e7U, 0xbe66eda4be599852U,
  0xbe32e379bda10ba0U, 0xbded9038be5497a0U, 0x3c1fc680be2442eaU, 0xbddb3c623d978091U,
  0xbd03b1803dd3f0b8U, 0xbe792b08bba0dfd3U, 0xbd82601d3d4d3210U, 0xbdd123d8be375b14U,
  0x3d5e5001be12d724U, 0xbd057edfbe4725a8U, 0x3d75e1b8be4b2afcU, 0xbe8b0b323e575c34U,
  0xbdc0c1803e71f95cU, 0x3c30bb5abd76a730U, 0x3e6a2b18be74ae4dU, 0xbe6b4792be0b53ccU,
  0x3d081cd9be6d8182U, 0xbdfcbd02be0c8dbdU, 0x3d8674e03e2d83c0U, 0x3e473e38be54fa02U,
  0x3e3140913e5fdbd1U, 0xbe18bc5d3db30dedU, 0x3dcec000be64aa85U, 0x3bc9a780bd5323bbU,
  0xbe1dee77be1767c0U, 0xbd3c4d2fbce73797U, 0xbd40d3743d45f0c8U, 0xbe3dbe733e238f14U,
  0xbd3034c2be213448U, 0x3e82a2c2be46cae0U, 0x3e1e4fdcbc401561U, 0x3caa9cc03d7dedbcU,
  0x3e0592953e588a20U, 0x3d6520803d27bb60U, 0x3ca8a427bdb0a164U, 0x3d9640fe3df723d9U,
  0xbe135bc83e6a884aU, 0xbe0430f1bd655592U, 0xbe09e020bc3e55bfU, 0xbdd82a23be3e3a52U,
  0x3e33df37bdc36bd8U, 0x3dfa21ed3d27af2aU, 0x3db8c726be182d32U, 0x3e6869863e1d5515U,
  0xbcbd1ad03dfde081U, 0x3dc216983c9a9020U, 0xbe0a6432bcca884fU, 0x3e42b9d3bdc3e566U,
  0x3e4fc7893e2d3af2U, 0xbe01ee383d864de6U, 0xbe4bd9633e2b929cU, 0x3e02b0f7be1d2c72U,
  0x3db06d02be1f2565U, 0x3cae58643e44a953U, 0xbda9dd903bad205fU, 0xbcc72e40bded174fU,
  0xbdc671bc3dbc7e37U, 0x3e73441a3dc63228U, 0xbdb9f9103d947220U, 0xba98a5ef3e187cd4U,
  0x3d0c1535bc843e40U, 0xbdcd8f7d3d4feaeaU, 0xbdecdf3bbe06b8b2U, 0x3d19a8203e10a503U,
  0x3d1c5429bdfb3958U, 0x3a3498003d077080U, 0xbe32542abdfafcb7U, 0xbdf1ea003d264abcU,
  0x3e3713c63e154830U, 0xbe6e10b13d75d3abU, 0x3e20cd8b3dc657f3U, 0x3adba8d53de968caU,
  0x3e03a34fbe043038U, 0x3e5888313da1479bU, 0x3e2ab493be1b61b5U, 0xbe541efbbe15a18bU,
  0x3e13c8fdbd52aec0U, 0x3d07c3b93e5cf864U, 0xbe1ba5163c80c010U, 0x3c2b075fbd860015U,
  0x3c92fc403df6c6a6U, 0xbde91d253e0cca2cU, 0xbda7e6bebcde75c0U, 0x3e2920483e22016cU,
  0x3e4617663d3f3881U, 0xbe6a7a223e4098d4U, 0x3e203c543e78b32fU, 0x3e6f4f803c875855U,
  0xbe2e75793b34b533U, 0x3e1b9e34bd2c167dU, 0x3e1eb602be12ff66U, 0xbc9fa97f3e094fa0U,
  0x3b99e084bc5b1cc0U, 0xbe30cccf3dc95699U, 0xbd58c0c03e552e3dU, 0xbe583e703dd1ece3U,
  0xbd924758be4126ccU, 0x3e4bc9f4bd198370U, 0x3d5012593e4cc271U, 0x3d20c2033e31b06eU,
  0xbdc4c7d03e4411feU, 0xbe3ae897be3d53d8U, 0x3e0e48d13dbb6effU, 0x3e6120bc3d7bdd33U,
  0x3b2734b5be690a98U, 0x3df7b15a3d80db32U, 0x3e538e0fbde62bf2U, 0x3e85c00cbdb6955bU,
  0xbe5065353de0b4cfU, 0x3cdd3d9e3df4b698U, 0xbe2706df3de4bf46U, 0x3d25f983be70f155U,
  0xbe59e662be5f9c5fU, 0x3e3b1338be86f00fU, 0xbd7722613c86b5e0U, 0x3c9fbabf3e211673U,
  0x3e36bc2e3c52576eU, 0xbe3980b33e57791eU, 0xbe3de82cbdb62dc6U, 0xbd67a7d0bded0e64U,
  0xbd96cd08bdb1a21fU, 0xbdeed385beb42088U, 0x3e194b6bbe9cfde6U, 0x3df19dfc3dfbf5c8U,
  0xbe7f136d3d28e990U, 0x3e80fa9a3d07e5e7U, 0x3cce9290be8092c5U, 0x3d9ef8903dda238cU,
  0x3e58a629be25059dU, 0xbe06ff04bdf18e38U, 0x3e1e54d6be09da8cU, 0x3e034b933e52443eU,
  0x3da7cc8fbcd60e96U, 0x3e3390ff38c58c42U, 0xbd9cfce7bd23715fU, 0x3deaa31cbe5433e5U,
  0x3a9845b63c806220U, 0xbd8a4fd33d200dbeU, 0x3e0b502fbde6e501U, 0xbd89fa593da93ed2U,
  0x3c0e85fc3da0f895U, 0x3e47bae63e0b1b20U, 0xbe5b15e03df3decfU, 0xbe556ebb3e0948ecU,
  0x3e6dd8dcbe23b782U, 0x3e501237be63ff28U, 0xbc2b47803dbb13b0U, 0xbda2bd993e134f10U,
  0x3d07db623d3cf12bU, 0xbe7369ccbe5d8798U, 0xbdce3e483e62c620U, 0x3d9cd6a8be587c24U,
  0xbe56abe4be6bf1f5U, 0xbe0f8b2ebd7cdc4dU, 0xbdda99383e09a0d0U, 0xbd8f0af83e23b248U,
  0xbe43aa20bd8985a0U, 0x3c233146be6a86a0U, 0x3d4a98cb3d7df2eeU, 0x3cfd6b20be13488eU,
  0xbceeef383e062151U, 0x3dec0008be5a2388U, 0xbe35f4a4be820849U, 0xbdc166f03e61f794U,
  0x3e768368be42cca2U, 0x3df11e30bb256314U, 0x3d5532abbe84e767U, 0x3e18d834be0c2874U,
  0x3dbe7e703e75e490U, 0xbce9d2293dc992a9U, 0xbe001350bdcd1116U, 0x3e1011033d18a980U,
  0xbda8d84d3dcf82c5U, 0x3e3a5eec3e7572c0U, 0x3e26c298be2c79c8U, 0xbe1cfd483e622e34U,
  0xbe6bf060be09e200U, 0x3ced98a03e613680U, 0xbde171b8bd72c0b0U, 0xbe55e25cbe2cdd6cU,
  0xbe5bedd0bd909890U, 0xbd97be58bdf40860U, 0x3dfd5430bd5fb140U, 0x3e1c3000be106f9cU,
  0x3ddb95f8bd82bf88U, 0xbd916f70be038004U, 0x3e23c7a4be3cfe48U, 0xbe4ff330be027b84U,
  0x3e0e27b03e564234U, 0xbe079c88bd74f5a0U, 0x3c547e40be1c5d08U, 0x3e6b29d83e0a60b8U,
  0xbb3338003e641278U, 0xbdf94c783e1c4440U, 0xbe3e3bf4bd0a32e0U, 0xbe4cdc843e14359cU,
  0xbde6ec503e053584U, 0x3d11b2e03e5d18a8U, 0x3dcdb760bd55eea0U, 0xbe4e5bb8bda65a28U,
  0xbe18a2c43db45d10U, 0xbd018b703e6cd98cU, 0xbd559300be0b98d8U, 0xbe22bbd4be3f7d7cU,
  0x3d6a4bc0be5c2bb8U, 0x3b8437803e418cf8U, 0xbe09a5843e4ff3c4U, 0x3e5f8aa4bd3bae40U,
  0xbe3a6c7f3d9a8b85U, 0x3e1bd67cbe2cf457U, 0xbe2164dfbe5e4c1cU, 0x3e07782a3dc64107U,
  0xbe0fabf23e32d9adU, 0xbe0e08233daf0b40U, 0x3d66e9f0be0e4764U, 0x3d7e30603e0ec455U,
  0xbe3a2fd2be114fc4U, 0xbde964093ddef6c6U, 0xbd340f633cd04203U, 0xbde73d0c3df5ca50U,
  0xbe4c65febd086980U, 0x3d6bf22a3dcaab81U, 0x3da3b9f43e797bdeU, 0xbbb581803e3d529aU,
  0x3e100a44be6115d8U, 0xbe15aa6c3e6d7398U, 0xbe8d2009bcc5bd48U, 0x3e77312e3cb0daf9U,
  0x3e09778c3e311b01U, 0xbe089afabdfd0f76U, 0x3de9c84f3dd20e5fU, 0xbd49bf87bd73638fU,
  0xbe1a9ed33e2ba6ccU, 0xbe02d227be856addU, 0xbe0486dbbd5b3605U, 0xbd2a8934bd8d6becU,
  0x3de99b1b3e5e19f6U, 0xbd61113f3da7b8f0U, 0xbd3070213d3b85c4U, 0xbc52f2b73da574b6U,
  0xbcac5160be769d07U, 0x3e02a78cbe475078U, 0xbe41b0593e6c70fcU, 0xbd5975083e190edaU,
  0xbe4763c2be5f6ad3U, 0x3c0de6ff3dd4058cU, 0xbe52abd83da1e955U, 0xbc863c603e5c4b2bU,
  0x3e0f9da33d579702U, 0x3d7f97b53dcb1934U, 0x3e1eee3ebe68ba0bU, 0xbe450e583d41aad0U,
  0xbe462cf1be34ae14U, 0x3cd5d276be875edcU, 0xbcb6b88fbce7b2c4U, 0xbda03a48be6cb98aU,
  0x3dc16fadbe4afb6eU, 0xbe076794bd9127a0U, 0x3d80fc8cbe29fb6dU, 0xbdedcf28bcd0bd63U,
  0xbdb06c103cedcf05U, 0x3bc93d183d12a4c7U, 0x3e3dfab2bd7deeceU, 0xbd581a60be50f392U,
  0xbe30e8ff3da09c40U, 0xbe2ca2abbe696424U, 0xbe0cff843b7d398fU, 0x3e7044043cacc5afU,
  0x3d5798433e1d2f0cU, 0x3df139133df15dd8U, 0x3dd592c03dd448e8U, 0xbe65408d3df555e0U,
  0x3b6819003e132dcaU, 0xbde6a6603bfa0b13U, 0x3c9e9c403c81fbc0U, 0x3c9729c6be4b0db0U,
  0xbdcd50043d807254U, 0x3e1eab573d8ef870U, 0xbdec3138bdbdbad0U, 0xbe73e9203d948a10U,
  0xbd9626e0bd2e4becU, 0xbde296a13b18a3b7U, 0x3dc222d83dbd2ae6U, 0xbdadbc833e3b6b9cU,
  0xbb8ea95f3dcce288U, 0xbdce62603db09cf8U, 0xbe14480f3de3bda0U, 0x3da478e8be0e0c4fU,
  0xbe8e084d3da4990dU, 0xbe11cc443d488360U, 0xbe5d28c43d50ca7bU, 0x3d94d239be8565a0U,
  0x3e45be20be2f490cU, 0xbe5387dcbdea1808U, 0xbe14a6223e0e3becU, 0x3a234800bd4b4492U,
  0x3e3eeb28bd5f8f10U, 0xbe35bb203e413768U, 0xbd7c3b85bd0735a0U, 0x3d35efb0bc5bbb5dU,
  0xbb8682ccbdaf5807U, 0xbe8cb1863d8d6a38U, 0xbe3620d4bdddedd9U, 0xbe9865213bd03280U,
  0xbd59911fbe052158U, 0xbe26c32c3d99c28eU, 0xbdb98c723e22a49cU, 0xbe74026a3e5b04a8U,
  0x3e42692b3e786f2eU, 0xbe17e3893e4d833cU, 0xbceddca03e62fd05U, 0x3e3b90ecbe433c26U,
  0x3e1444aabdb406ecU, 0xbe286bda3c44a9d2U, 0xbe0ca11c3dcb2ac5U, 0xbdd7611d3e3d5c70U,
  0xbd9458f7be27141cU, 0xbe00763e3cd7c4bdU, 0x3e7ae8f43dbb2fbeU, 0x3e5f8b18be82d75fU,
  0xbe6e3bd9bdb9fdb7U, 0xbdc6a6e8bde44f38U, 0x3df9b8a03c8a8dbbU, 0xbdd998523d41590cU,
  0xbd4dc2ffbe58627bU, 0x3e8714093d86d042U, 0x3e430fe03d19638fU, 0xbdaebc3abe350b5eU,
  0xbe7bae883e0af57cU, 0x3dcbdc4bbc7ea768U, 0xbdba061f3dc59ebdU, 0xbe73ddc13e3fd104U,
  0x3e06486e3d993871U, 0x3dc2f362bdebea98U, 0xbd489a133db17567U, 0x3dadeffe3ccffc28U,
  0xbe2bd46cbca7e825U, 0x3db3bc28be1c48f7U, 0x3decc194be7d0f40U, 0x3e4f2863be116124U,
  0xbe4dd7ec3ec2a820U, 0xbcd975f1be41fe99U, 0x3e7cae7c3e81fe57U, 0x3e7cb5803e3db51bU,
  0x3d28cf9fbe503b9cU, 0x3d169b48be9557e5U, 0xbe1dbcc8be7206a8U, 0x3de7fa8ebe115d68U,
  0x3e42b842bdb5e608U, 0x3ddce5613d98a2e0U, 0x3ce147aebe0dc1abU, 0xbe1c22383d888b19U,
  0xbdc1625b3be07cb0U, 0xbe0208443dd79428U, 0xbe0544f9be709a24U, 0xbf0cf87abc24a097U,
  0xbdf50d73be1f09dfU, 0x3e51cb4d3e7c3a72U, 0x3e0fd06a3e60d928U, 0x3c22cc7dbd87cdf2U,
  0xbe022458bd96f6b8U, 0x3e83174cbe498087U, 0x3e7839c03bc73c40U, 0xbdac14383da7cf25U,
  0x3d3a23493d212dffU, 0xbe16ea57be39cbfcU, 0x3e42bb14be44ad02U, 0xbcfcbb5b3d10d1e8U,
  0x3e4989553d315271U, 0xbe3dce2abe72704fU, 0xbd5a7606bd4cb140U, 0x3d8c9a5d3df1d412U,
  0x3e5d68a6bc6e0eeeU, 0x3cf2a37c3e07fbc8U, 0xbe28c21c3e67bcb3U, 0xbd1edac03b8b1c2cU,
  0x3e64a295be1d3a4bU, 0x3e6208eebd2d33f4U, 0x3e55f3453eb36285U, 0xbe4f3ba03dba21e0U,
  0xbdd8444e3e5dbc60U, 0x3dfe7615be1e9611U, 0xbdf9e364be179989U, 0xbe62a898bd52e60eU,
  0x3da365eebcac1664U, 0xbe2f1df83d7449a0U, 0x3d30ae9a3cb4644eU, 0xbca39b843e57ac46U,
  0xbdfe4360bdcbde2fU, 0xbd92ae5d3d32c455U, 0x3dea26573e078e7bU, 0x3e43a38c3dafb596U,
  0xbeb180d63e5fadd8U, 0xbe0827d9bcfb5354U, 0x3ca9422b3e05de2bU, 0xbccb867d3e0314b6U,
  0xbda1c993be1f24caU, 0x3d61166d3d1e50d0U, 0x3be60bafbb854eb5U, 0xbe16e4c7be68329cU,
  0xbe3baa833e284fdcU, 0xbe6b9f6abd6a0cdcU, 0xbe21bc5c3b3d3900U, 0x3c40a0a13e342e6bU,
  0x3c0d482b3e4300e4U, 0x3e4395c63d0388b7U, 0x3d104100be47e7a8U, 0x3e558ea4be08c44dU,
  0x3e1a9cbbbd516e8cU, 0xbe2ba54fbcc1fc74U, 0x3cf287a5be2ab3b1U, 0xbe65b77d3d4710f0U,
  0xbe0c63b33deea400U, 0x3da3064b3cf4b264U, 0xbd90f1d23d553d33U, 0x3e7737e83dfa6497U,
  0x3e3a9c9ebe06ae1bU, 0xbda920603e5482d8U, 0xbe25eb653e5ccb21U, 0xbe5c958abc1089c5U,
  0x3e41446a3e7b22a8U, 0xbe6f0b163e3f36bfU, 0x3d8886e83e8ef477U, 0x3c0558713e0959f2U,
  0x3d9930ddbdf81958U, 0xbdb8dfbd3e3d8df4U, 0xbe3584febdbfbbfdU, 0xbe7d05d33e0ee37bU,
  0xbe377479bc853c58U, 0xbe35a7923ce7cf00U, 0x3d85d7bcbc0daf9dU, 0x3da1e37dbce8c305U,
  0xbd7002fe3d1054e4U, 0xbdc9dca8bd88d0f9U, 0xbd4d647e3d9c53e8U, 0xbdf2c7513ce75ef5U,
  0x3e049a84bde16581U, 0x3e1b3466bd06e189U, 0x3d3bd2403e583209U, 0x3e724d68be5f00a5U,
  0x3e3452433e39bfebU, 0xbbe3764b3d956f29U, 0x3df2b75c3db3556eU, 0x3deadf453e785690U,
  0xbd28a763bd00e450U, 0xbe4536f5bda9d424U, 0x3b39d0883dc432bbU, 0xbd2a1f903e70c0e9U,
  0xbe435b7ebe611608U, 0x3e51d6243e68bb90U, 0x3df26c063e2af2d6U, 0x3da93879be6866d3U,
  0xbe1f2edbbe04202eU, 0xbe7688fe3ba05f16U, 0xbe220d6e3e4f41c4U, 0xbe0dd820bd6ca15bU,
  0xbd87db723e131f24U, 0x3d92b3f9bdbd0c1bU, 0xbd3981b03e362f57U, 0x3e1f1cba3e54da89U,
  0xbd0b835fbd99c929U, 0xbcd53e96bdbaa7c8U, 0xbe55c445be31ed65U, 0x3da638cebcc79355U,
  0x3d652209bd840298U, 0xbdbeb5403d0e5401U, 0x3da419903e71e704U, 0x3dcb940c3e1f682cU,
  0xbd8e4d8dbea32442U, 0xbdff0e393e4febd5U, 0x3e202ccc3d6b3ac0U, 0x3d3f92a0be224ba1U,
  0xbe8de10fbcb97786U, 0xbe5cbb11bd419009U, 0xbd8328a3be2e8866U, 0xbe83e2d3bdba7828U,
  0x3e179d84bd4b3fd0U, 0xbd143d343e086acfU, 0xbc2536303c7a97deU, 0xbdbda6e0bdacbaf9U,
  0xbddf739a3e348458U, 0xbe3171b4bdf7ee58U, 0x3d3aaecb3d565f72U, 0xbc46ac2bbe8d0527U,
  0x3dc19dd1bdd2fbfbU, 0x3ccc00c73d1dc44cU, 0x3ba7a35abc254cd7U, 0x3e4a0c51bd9bc342U,
  0x3e2b24493cb3a9e0U, 0xbe59de26be66e36bU, 0xbc40b8e2bcc2d018U, 0x3d3ce46e3ca30740U,
  0xbdeaac8abdfdf04aU, 0xbdf5a4883da8ec58U, 0xbdf6be33bdbaf3f0U, 0x3e3b17a1be08a674U,
  0x3e47f0823dae849bU, 0x3e020a30be18dfe3U, 0x3d80b1003d85e3e8U, 0xbc4bcf103e418ac6U,
  0xbd32876c3e1fda97U, 0xbdd96816bca8de23U, 0x3dfea340be358611U, 0x3d9a5b483d741660U,
  0x3a132c64be622378U, 0x3d8d15973e2bf0bbU, 0xbe1df9193e8125fdU, 0xb816f5533e7c441cU,
  0x3d07db42bd5fa890U, 0xbe660089bd6568f4U, 0xbc6b9626be6959e7U, 0x3e7e64943db81853U,
  0x3e1471c2be5bdbb4U, 0x3e1cf960bc800200U, 0x3e682af3bd93c844U, 0x3d5de627be1086cdU,
  0xbb965b00bcdae85fU, 0xbe1709cdbe0c2d79U, 0xbe61406b3e221d5aU, 0xbe32410c3e2ab9e9U,
  0x3cdc4c003e0bbd04U, 0xbd182d233e6f74d3U, 0xbe7284163e19f5eaU, 0xbe3ad675be7601d7U,
  0xbe4822323e2c3250U, 0x3e37f345bd98d960U, 0xbe70499c3e32a607U, 0x3d263b23be6e040cU,
  0xbca946e0be4860b4U, 0xbe1339ac3d37da70U, 0x3e560ef0bdff0868U, 0x3d88a180be4867f8U,
  0x3e190d943e19869cU, 0xbdd9aa583e2d9af4U, 0x3c3a0d803d47f7b0U, 0x3dc66220bd06ed30U,
  0x3c8bd6c0be0dc824U, 0x3da3d690bde7f0a8U, 0xbdc2d050be0162a4U, 0x3db62320bc06d3c0U,
  0xbe43977c3d790700U, 0x3e1e6c54be37f518U, 0x3b2e28003e0df3a0U, 0xbe1905b4bd5adeb0U,
  0x3dd5eff83e3c7e1cU, 0xbe2ebdd03d7f6490U, 0x3d158360bdb3c048U, 0xbe7973803e609a24U,
  0x3e65078cbd2338e0U, 0xbdd85870be1bf66cU, 0xbd8e0028bda15800U, 0x3e720320be179284U,
  0x3df64ea0bdc23e50U, 0xbe248e40be791afcU, 0xbd5748b0bccd0d60U, 0xbe5563383d2a7980U,
  0xbe7d7904bd96edb8U, 0xbdd52a88bda48938U, 0xbd4ed4a0bded06a8U, 0xbe1fba70bc9e0fe0U,
  0xbe5028d83e01c93dU, 0x3d319b303db81856U, 0xbe2ccdf6bdabd308U, 0xbdb1f6a63d9dd1caU,
  0xbe58dc14bcd45c80U, 0x3d08b9e53db02285U, 0x3e6a6f08bc5da600U, 0xbe4d7564bd40acd0U,
  0x3dbd1267bdecc5b5U, 0x3df8bdc6be681dfcU, 0x3dae09d2bdf07470U, 0xbce97ad5bdc5b0e0U,
  0xbd725dff3d89fde8U, 0xbe62281fbe563a45U, 0x3de8d28fbb3b560dU, 0xbd98b8f8bd2e0182U,
  0xbe0520a43c657040U, 0x3df361883e4147f8U, 0x3e18912e3d7157a5U, 0xbe73dc233ca1cc20U,
  0xbdf85e90be09965aU, 0x3e4dbc1e3e4d4e34U, 0xbe2684aa3d961767U, 0xbdb5b4b8be12863dU,
  0xbc810ce0bca26ee0U, 0xbdb2edee3e1cb4e8U, 0x3e58e20cbd06b2cdU, 0xbb88fa00be0bfc9aU,
  0x3ba53d3bbe3e7a18U, 0x3dd9471b3d913338U, 0x3ddac6e0bd89c389U, 0x3cc3cd6fbd0bd260U,
  0xbe5e71f03c26d63dU, 0x3e482eccbe6d84a8U, 0xbcc3e380bdbd2ed0U, 0x3c6bc71cbdca6518U,
  0x3dbc4d85bdc45abeU, 0x3e6962983e2db754U, 0x3db377283ce5e9c0U, 0x3c1b09c0be2edadcU,
  0xbe48069c3dcd35beU, 0xbe3052f73e0d5b67U, 0xbe434a643e621a54U, 0x3d3ef3a0bd4f3d80U,
  0xbe529b263e337bc4U, 0xbd6d40c3bdb1b2f0U, 0x3dd912fabe879eb6U, 0x3e6087c43e014dc7U,
  0xbe1323d93b0d6200U, 0x3aaa64003d754db0U, 0xbe6c7738be29b468U, 0xbdc751093e40959fU,
  0x3df16e283e63bc38U, 0xbe2b23f0be487bc7U, 0xbe632ca03e0a8b75U, 0x3e5590dcbe3192f4U,
  0x3e658a3a3ddc4e78U, 0xbdb6af7d3dfe42aaU, 0x3dd25a383e3e8d85U, 0xbdc0db70bd35c7c0U,
  0xbe61934ebe354ad5U, 0x3dd4f0c5bc817c80U, 0xbd9d3298be8a0c39U, 0x3df8db5d3e50850cU,
  0x3e2f9f66be34675aU, 0x3e75ee483e249418U, 0x3e6d8b6cbd247b00U, 0x3d4f813bbe835131U,
  0xbe6afed6bd05b320U, 0xbe5f8120bc819e80U, 0x3e4a58fc3d132130U, 0x3e0c1bc03e05b338U,
  0x3e00b47c3d518f6eU, 0xbe4e62a33e523d4fU, 0x3d55a9203df00c03U, 0xbcb31e203e58845cU,
  0xbd03ba103b8c2800U, 0xbe2956b3bdf4b098U, 0x3e19ee6cbe7b1e85U, 0x3e1ab810bdaba61bU,
  0xbe27b11e3e6477f4U, 0x3e72b26cbe64eb3cU, 0xbe2fbe28be753608U, 0x3e0340a5be0531beU,
  0xbe06e8383e6f3960U, 0xbe05e6c83be00a80U, 0xbe2debf0bdd2ccb8U, 0x3e41dd083cf94400U,
  0x3e766a74bdd00918U, 0x3df6a4b03ce27246U, 0xbe3880593e56ba2bU, 0x3e25b48a3e4b99bcU,
  0xbd8145fc3e580880U, 0x3d86ec443dff0218U, 0xbe7f33d0bd8c99dfU, 0xbd9cd2e2bdfd9538U,
  0xbe150fc1be424dfeU, 0x3dd70e06bd79d664U, 0xbe28d479bdb03fc8U, 0x3dc9125f3e3cf198U,
  0x3dad71e43da08b76U, 0xbe476f4a3e101b58U, 0x3e6137c43e493955U, 0xbd1bede0be3be94aU,
  0xbd85c531be3a226eU, 0x3e32a3ac3db2a08cU, 0xbe4e08d83d2ebec2U, 0xbbc8d7693db72d28U,
  0xbd58bbfebd4981f0U, 0xbe1d52db3e4f6a40U, 0x3e108e1cbd94fc83U, 0xbd9beff0be34b7c5U,
  0x3dc36cd33d650864U, 0xbe55d63c3dc52e58U, 0xbe121d753e4ab3d0U, 0x3dbb8e7dbd21efd7U,
  0x3e7c0b37be0c552fU, 0x3e517232be40d73fU, 0xbb2e4aa5bdf77ebeU, 0xbe2d60403de83bdeU,
  0x3e00bfbebe001d60U, 0x3db9dcdbbe16165cU, 0xbc90429c3df0e204U, 0xbd1de17fbe63f2a5U,
  0x3e835c1c3e108eebU, 0x3e296ca8be659500U, 0xbd0ec3b93ce5039dU, 0x3e4e55153e342deeU,
  0x3e3f37a6be7748e2U, 0xbe81aef0be558165U, 0xbe77dbd0be4b97ccU, 0x3e05eaa8be3fcbf7U,
  0xbdf57ea23e3beb3aU, 0xbd07da4ebe16a8f3U, 0xba2cc4003dd029e2U, 0xbcd150a03cd9f8e0U,
  0xbe709ca3be70d4f4U, 0xbd5a46d9be804883U, 0xbe6a9f0c3d6c22c8U, 0x3e4c1559bd902ce8U,
  0xbe733ac3bd2342f0U, 0xbe5283f73e662235U, 0x3e248ad63b265bfcU, 0xbe0350fc3c1a3c93U,
  0x3e1688633e36557bU, 0x3e3ac4a4be20fd88U, 0xbb46b2003e0a07d0U, 0x3e263e633e260254U,
  0xbd6fc0703c1ceb98U, 0x3e156ad0be36903aU, 0xbe9127893e473c8cU, 0x3db143a03e4f138aU,
  0xbc8ce5363e343fa4U, 0xbaa13eadbe0aee58U, 0xbe4f3806be1c9487U, 0x3e3593773e6a7119U,
  0x3cfa36e5bddcd79bU, 0x3e3ec3f9be022678U, 0xbe0195f2be6d9b69U, 0xbde60a1a3e51ffb0U,
  0x3e0682803e46194cU, 0xbe66d0683db3ab50U, 0x3ccc4200be5cdb0cU, 0x3e50533abda53bafU,
  0xbe4480e5be0a3398U, 0xbe439cb83e163680U, 0xbe3354ec3e3e5e18U, 0xbde073f03d3ebeb0U,
  0xbe681af03e27e84aU, 0xbe62ba04be8a293fU, 0xbdc65580bc4f5680U, 0xbe5559bcbe4c4f4cU,
  0xbd8a34103de34070U, 0xbe0044503d4b04f0U, 0x3d4404303d98399aU, 0xbe688448bdbdc710U,
  0xbddd8a7ebde2a590U, 0xbe143eb8bd44c450U, 0x3e1b06f0be8619a3U, 0x3e2721babd3a043eU,
  0x3b3a2d00be1f44d0U, 0xbcb75600bd9df370U, 0x3c3a8c80be757deeU, 0x3d07fa00bc360740U,
  0xbd616660be329020U, 0x3cdc3a583d0d989bU, 0xbe38c8c43e23eb70U, 0xbd188c503dea9f58U,
  0xbe2a1dc23e244ee0U, 0xbe7f2cb23e1a9810U, 0x3e1caf183e171154U, 0xbe8f84493dc3d9f8U,
  0x3e281c70be890802U, 0xbe016d713e8cf647U, 0x3e3eb11a3e650a6cU, 0xbe2633173c824cf6U,
  0x3dfb685c3e54cb73U, 0xbe3d9f03bd639540U, 0x3b8e1280be1e12dbU, 0x3de320a83c1b1f18U,
  0x3e3ecce63d9ab85dU, 0xbe247b12bc4a458fU, 0xbc765ad33e999019U, 0xbdf03df5be05d800U,
  0x3e1d69033e5f6748U, 0x3dabd8c13e3d6c62U, 0x3e2280d5be0216a4U, 0x3ddccbc0bc4b7818U,
  0x3e647eab3e2a3b92U, 0xbe2961443d5d1eb0U, 0x3e40b820bc96c91bU, 0xbe029be43d284aceU,
  0x3b3e59fa3e4674f7U, 0x3e35e0d3be80cae6U, 0x3e066990be4afe6aU, 0x3e3fe4fe3e37937dU,
  0xbe9d49cbbac8fe00U, 0xbc69fee03e2e60a0U, 0xbda58d413e545df6U, 0xbe74ca6cbe592820U,
  0x3dff4a823d61ae5dU, 0x3c7a1c133d5bbe80U, 0xbd3fdae83e077d92U, 0x3e5a4feebe725a37U,
  0xbd9f4bc8be175552U, 0x3d9fd4c8be43628dU, 0xbdd246d83e727bc4U, 0x3ddf31e43deb9a60U,
  0xbe3424fdbe1c2a58U, 0x3d95d9b33d30cf70U, 0xbd223930bdcfe358U, 0x3e506704be4b0dc4U,
  0x3d8af5d7bd7e8402U, 0x3caab2903e686cefU, 0xbe03040e3e299af8U, 0xbe600620be0fa5e0U,
  0xbe64448ebe103bdcU, 0xbe472db03e620438U, 0xbe4648ecbe5c71a8U, 0xbb418a00be7df111U,
  0x3d9596e2be2f75a8U, 0xbde3cd10be341bd8U, 0xbe0cae64bdbda400U, 0xbb63d837be200594U,
  0xbd3e8ff0be88b04bU, 0x3dd1db37bda88ce7U, 0x3d9e1e563e60da4cU, 0xbe39dd143e70dd14U,
  0xbe0c4a643d8fcd60U, 0xbe4e8e193d8d3348U, 0xbca0b520be7199b2U, 0xbc3fbaf03d51b719U,
  0x3db56b343dc05267U, 0xbe4171563e6890f8U, 0xbcba0aa03daccd68U, 0x3dfcab6e3e0bc220U,
  0xbe17ae36bd9090d7U, 0x3e413eb6bda01215U, 0xbd3fb6503e4fb7c0U, 0xbe3afbc7be6e5555U,
  0xbda87bbfbe2a932dU, 0xbf0c3cacbe4b54c0U, 0x3e30f8703d8cfba8U, 0xbe0fb82cbdd433b8U,
  0x3c931226be35d7ccU, 0xbea4eaaa3df4495fU, 0xbea47b0f3e8e1145U, 0x3d453b73bdff1908U,
  0xbe7bf63abcfc4f40U, 0xbc9017a4be8d8294U, 0xbd0351d33db60bd3U, 0x3d9da740be3351b7U,
  0xbbf91c8ebd08c520U, 0xbe413c50be1e0200U, 0xbddf40e83e61a730U, 0x3d8faf403e38af27U,
  0xbe477ce83d17d316U, 0xbe5f8cffbe6b1e39U, 0xbe2c62c13c61b27cU, 0x3da00a10bddafa31U,
  0xbe8057673dd1f448U, 0xbce42278bde9e596U, 0x3e4236d03de3ba5cU, 0xbdeed0533e42594dU,
  0x3d809e59bdc9aeadU, 0x3e3730473dc07798U, 0xbd8c6068bc0acc93U, 0xbec473f6be7718fcU,
  0x3e76812c3db4a955U, 0x3dee0ec0bdbb6bd7U, 0xbe62b2e83ce97600U, 0xbe1b91abbe2e86b3U,
  0x3e505ab9bd9d07d8U, 0x3ca945eb3d8042d2U, 0xbd3dbba0bdb7d790U, 0xbae546003b8db0f8U,
  0x3e4fb2d2bbde87fdU, 0xbd71f7d5be6a9310U, 0xbd0d8b66be23f758U, 0x3de424e8be10b840U,
  0xbe3defa43e446fb4U, 0xbdbfa0e03dd9c647U, 0xbe89e8d9be8ad7e3U, 0x3e650f18be4852b5U,
  0xbdd76305bda5e648U, 0x3e74ad0cbe433c70U, 0xbe335c9e3df4031bU, 0x3e5286c3be547c14U,
  0xbe7e6854bd54317aU, 0xbe8695683d8a9a8fU, 0xbd9b27d03cb84c98U, 0x3dcdb950be511148U,
  0xbe60925c3b8c3400U, 0xbe26f1fb3e3139f8U, 0x3e43a16cbe7b4e60U, 0x3e341154bd982918U,
  0x3d5245853e0f4e31U, 0xbc89391f3e171f34U, 0xbe69f7a03deb595aU, 0xbe40f47f3d114080U,
  0x3dd8c98dbd867064U, 0x3c82a20abe374c3dU, 0x3e6330e83e036114U, 0x3d990113be097560U,
  0xbe2e27e5be3c371dU, 0xbdec188cbe5826f8U, 0x3e5ef3903debfed8U, 0x3e0452dcbe4800e0U,
  0xbe8a8434be61caf3U, 0xbd1da7b83e2f9d69U, 0xbe1431f03e37a16cU, 0x3e4f8e193d98b5a8U,
  0x3e22d9e4bb9f8680U, 0xbdebc8f03d305e1eU, 0xbe87ef4bbd629cd6U, 0xbdf85f28bd78d09dU,
  0x3e340f8e3e524c37U, 0xbcb8a5e03db00198U, 0x3be27e07be40f2f9U, 0xbd1bc20c3d4f96ddU,
  0x3d8872103e2371efU, 0x3e076972be311340U, 0x3d6a7982be2fc615U, 0xbe1626883e25897eU,
  0xbcaabdccbe4797bcU, 0x3c04656ebd772adeU, 0xbe31a187be6791f8U, 0x3e08a17c3e1f4c7aU,
  0xbc2a7384be25dc18U, 0xbe51f362bd987580U, 0xbe760ca8be86a016U, 0xbdb457d43e45da7cU,
  0xbdffd461bd082e80U, 0xbcbcd403bbb02910U, 0xbd62f8fc3d5b2020U, 0xbd18a96e3d3b4a9cU,
  0xbca4aa35U, 0xbd0b6945bd57e664U, 0xbd7900d1bd66c2b8U, 0xbc80a2b1bc6b3f59U,
  0xbc4bef063d72d089U, 0xbda1cb34bd20ac7bU, 0xbd25d97900000000U, 0xbcf635e4ba3b0cc8U,
  0xbdc47fcb3d2d03efU, 0xbd799d32bcfa0e47U, 0xbe6e311fbd08b4b8U, 0xbd6aec51bd710227U,
  0x3da88ad0be8991a5U, 0x3d7e7979be08ecddU, 0x3e8ccda5bcaf9741U, 0xbd26ba00be92bbcdU,
  0x3eb15b4abd74474bU, 0xbb82e2753ea42960U, 0x3dcb5d47be804deeU, 0x3dc4e996bd5ab80eU,
  0x3b49ef7bbe9e7257U, 0x3abc24a13bc3923bU, 0xbe87a751be864170U, 0xbdd5aeba3ec7bfeaU,
  0x3ea6b339bea0c93eU, 0x3e035eff3cc8e660U, 0x3d2b79733ecad8ebU, 0xbe52e740bd9707d6U,
  0xbd4d3affU,
};


ai_handle g_network_weights_table[1 + 2] = {
  AI_HANDLE_PTR(AI_MAGIC_MARKER),
  AI_HANDLE_PTR(s_network_weights_array_u64),
  AI_HANDLE_PTR(AI_MAGIC_MARKER),
};

